00101001100001100000111100010101111000100011110100110011101000110110110111000101011001101100111110001000001000101111100001000100011001111011100010111100010011100000100111000101010001100100111000000101100001011100111111110010001001101010001111011111100011110100000001101000100011011011011111010111000010111101010110010110011111000011101101100110010010110000110011101100110110000110101000000101111000010000011010011000110010100000000110000000111001011110001000010010011000110100110001010100010101101000011001000011
01100010101011011100101101111110100100010001100111011011001111000100101000110001000101111011010101010111100101011011100000001111001001010000011110010000011001111111110001001101111011100001111110011100010010110111001100111001100110110101011110000110000000001000010011100011010001111001010111001001000001110000100100010111001100101000010111000111010001111111010001010000001111111100110110010010011001010101100110100101010111111111000100111010101001000110101001110011010101101111010100010000101011110010001010110001
