10111010000101001100100111100111100111100010101010010010111110000110001001110101111000100111110110101000001001100111100010010000011001010100011000110001110011001101110011111000000111000011000110000101000001110000001000110111111111100101101110101111000011101111001110011001000100001110001111011010001010110100011011001011101000110111110010011010111011000001101010101010010101101010001010011110001110000011100000100101000010111100101000001111101110100100010010000110011110110010001111010010101010101010111100111000
10100100110001000010110010001011011101001101111111110010101010110101101100100011010110100111001111010011010111100110101010100111111110000000111011111011101101010011000011101100111111100100000100110000101000000110011000111111111111111000010101001111001011010011001101101110001011100001001001111101010111010000001000000101011010110110000110111100110111010010000011101100000011000010111111101000010110001001101111110001000110110011010011000010110000010101101000100000101010111010001110001101011010101100011101001010
