00111011011101011011001101001110100100100100111010100110111110001100000000011011011001100010011001101000011001001111001010101000110101111010001011100100000101110101100111000000110100101111101111000010111110001001110110000001100111011110000011100111100100011000101001110101111101001000001011111001001001111011111101100000000001110110111000100011101101000001001000010000100001101000110011010110110001011101110000111011000100010001101001000101001010010001100100101101000100001101000101011011110110011111001001011000
01001101010001101111001011001111011001000101110000000100111111100110100011101011110111111001001100001000001101100000110010010111101011000010000111110101100110001111001100000011111010111010100110110010110100101010011001001010111011010101011011000001001100010100101011000010001011101100110010100000110011110111000101111011010001100100010110111010100100111001110100101101001000110011011001001010010100111010101001111010100001100110011111101011000111001110010001011100110101111110000001001010011001011110010001010100
