01100010010001000111100101101110011011011010011110001111010100011110111110011000100011000011010001100001011011111010101000101111010110100011000110001101111101100101011001011011100010001101010110110111000010100011001000000000110110111100111001100011001010000110100111001000110111011010000111011000011000001001011110110110110011110000100001100101110101010111111001101001101110110110111100011111011101100100101000100000000101011101010001001000000110110101001101101100110110100000011001101100011000000101111111101100
01011011100111010001000101111010000100110011001010101101000010101111100011111110011000101001101101000011011001000111101110101110011011000010000001111010100001001110111101110111100001100001011000010110100110100100101111001101101101110111010010111001001011110000100010100111100111011011110001011111100111101010010001101100011111001110000101000001010010000111000101110010001101100100001111111101111000011110111111010111010010110111101000011100100001011011101001110001001111101111101011110110100111111000011000101101
