00100110011100000011110011101010001100111110110101110000000101001011101010100011000000011010110010110010001110100100001010001011101011100110011100110101001001011111100010001110111101110100100001100101010110100111010100110001000010000000010011010000001001001001110101110011011010011010110110010101101001010111101011110001101001000001010101000110111001010100100101101111001111101110010101100110000110011010011000001010011111100000001010010100000001011110100011010011110110110110001101010001001000001111101010011001
01000010111110100001110001000001000011100110101000011110111101001100100010111000101111101100110111101101010111110001001110010000111110111010001111101111000001001000010100000001101010101001000001011100111100010011101001000100010000111110111010101100101100111011101001100110111000101100010011000111001101001100001101101100111101001110010000000111000011101101101001110110110000001001101001111000010010000010100101011011001010000011111101110000100001111011111111110001001010101111001101100101110110010101111111000111
