01101110000110101000100000011111111001000001001000010011001011000101100010110100010001111011001001011111101010110111000001100111011010111000001011000101001010111000101000111110101100101100000001110101010110111110001111101101010100100101010000010110000000111111101101001000100001000111101011111000101100100110000101011001011111101011001001101011000110000000110011101011011111100100011100101110100010001001111000101110111000100001001011111111000101100101101010001001011100001111001110101110000001110100011101011100
10100100111001101011101001000001001011011110000101110111011011000100010000101011100001110011110000010101001101100110100011010010011101100000010101111000001110011111011001101110000001010101001110010111001101011010000010101000001000000100010111101101110011011101100011001000111000000011010011011101100110110010111001100110011001000110001101101111001110111111111010000001001101110110000101000010101011101000110010111000010000101110010100011011100100011010100100101011000110110010111010110101100100010110001011110111
