01110110110101101101000101001100110101001100101010001111000100010000111010010000001001010111111000101010010101001100110001000000000111101100111000110010001111010000011000001101101011101010110011001000011110111011100011110010100100110010010101100011100011010011011101001001000000010010000110011110010101011011011011011011001001100110111010101101110111000010111110110100100110101100111110100010111110101110011111110111110101010010101111000001101010000100100101111001101101011100010101111100000011110001000000000010
01110011101010000010011010000001100100010101110001010010010101110010010111010001101001110110000101110100101000111001011001000001000111011010111001010010100010000000000110001110000010011111001111000111111110011010010000011010011011010100011011110000000111110010101001101000010110100000000100110000010101101111000101111010010101010000001011101100011001000110001101111001101000000111110101111011010011001111110011001000000110000101100110100011111001111110011001010100101011100011100001110001010110100011010010000011
