11000011110001000110000101010100000011111010001110110001011011101110000001101101000010001100011110000000111011011100001110010110010001011011100101000010110011111001100010100000000100111000100011100000011011000010110100010111011100110000001011010100000110000011111010001101110100100010110010111001111001000000100001101100001101111011100110111000000110000001011000000100111110100001011101011011000110110101011010100111010001010110111001000011111011000100110010000110000000111010111100001001010010101100101111011000
10100101001111000111101010000110111100001111111111100010000010101000101100001011000001110100101111111010111100010001111101001001101101011110010001010010110011000100000000001101100100101100001111010100100111011000101001010011110100001001111010001001110010001101100010101101111000011100111010111100001000110110101011010110010010010011110110110101100110100001000101000010110010111011000111110001000100011110100010001001000000011101010011111101100001101000111100110011000101010010101010010011001000101111010101110011
