01010111110011111010110101000001100000110010011011101101011000111101011011000111100101100111010101111111111001010101101010111010100001100111100010000010011000101000101110110110001000111110001011101100010100001010110011111111111011011101100101101110110010101111101011011001111010110111011100111111101010100100100111100111001101101000110011101000010110000000111100110011101110101110001010100110110001001000010001000001101010101100001110010111010001111110010101001010001001000111010011000010111110111100110001101001
00111111010011000011100110000001100000111110111100000001110000100000011100111000010010111101100001010101011110010101111101011000010101011001101000100011111101111001011011110001110011011011001001011100001001011111011111000110001101000000111010101101011111111110000001110010001010110110000010111111000000011110110100011110001010001010011110000101111111111010010001100111110001010110001110111001110101100111101110100001001000001011101000001001001011111010110111110000101111100010111000011111101010010010100111010111
