11000011000111010100100011111110001110111010001110100011110001101101000011010010110000100000110000100100111000000000111101001100100001010001000111111111101010000001110100111111010111101010000100100000111101111101001100100010010110001000111010000001000110100000111001110110101000101011100000000011000010011010101110010101101001001100011101101000000101100110001111000111100100010001000000100011101001100111110010001000000110011111010101110000011001110011010000101000010001011000011000010111010110111100011111010111
00101101000001100100011001011101011111010001001100110111101101101010111111011110001001110010011111001001110000000001000001101110101001011111011000110010000110001010001100100100001011110100011101010111011011100001100100001000000111101110101011110111110111101000001101011011011000111010001001110010100010011101101111011100111010010100001111010011100101011110001100010000101110011110101110100010000011010111101100111101100000100100100011111010100111111001101010101101111101000100011110111101000000000011000111111001
