11000010111100100100001101111010001000111001111101110111010010000010000011111001111101100001100101101010111100011101111101111100011111100010111101101001100101110001101000001110001011100110000110110111011100010111101111111111000001110011000110101011110010100111011111111011100110100110001110010010000000001011100001010101000000101000001100110011001100000000001000000111000001011000110100110010101001000111100000111010101000101001000111100100010010100011001110101010011000110011000001010000000100110001101110000010
11110011001110101011110001000110011000111011100111100111011011001011010000011110010000011101110110011000001001101000100111000000001101000111011101111110110001101111100101010001111001110000000011100101000100001000011110011000011001000111001101001101000111100000000001110100000111111000101000110111010000010100011001000100010000101110111100110001000100011111011100110010100111100100101101001000000110100000000011110110110101011101011110101110000101111110001100001111110010110110100001010110000100010110000110010000
