00001101000011101101011001110110110110011001100110001011111011001110110100000111110001110000010101011111000111110111011000001011001010000001101101110100010011100001101010001000000011111111011001100011101101001011101011100110100101101110000101011011100010100000110110110110110100000111001111000100101000010111001100011011010001101110011001010111000101001010100000001011000110101110000010001110011100111110111100110111110000011011001011110110100110001000000001101110111011110010001001010011110001001011011110111011
01100111000100110000111111101011100111000010010110010011011111100110111011001001101111010010010011011001001000101110101111101011010011111011101101111110100100110010001111011010100001100010010111110001111001001111101010111110110111010110110001001110100100000110010000001000110110101000001001001000110000101110101110111110011001011010000111010001010000110001011000110110011000100101001111010001110000111111111010100011000011011100011110110101111010011010100100010011001111101110010001010001100111101110111111110101
