10111010010101011011101110101001001101111110110100101110100001110010100010000001011001011110110001101000001011111101011111101100100100000100111101010000110010100010011101100110010000110100111001000100001101100000111010110111100011111000100100011010001001110011000100001000111010101110001010100100011110011001011100010011111011000110111111000100111000000111110110011001011000010110111101010100110010111001111011010011101110111100011101110111101010010111100010100100111100111100001111101001100010011000011111100111
01110111111100110011000000111000110000100111101110110100011101111010101010110011110101010000001101110110000010010100111011011101010000110001110000011110110011000001010001011011010111010111000101011010000001100011011100101011101001001100001001010001011101010111011111000101010101001101001110001100011011101111011111000001010101001000111010010110010110111010010011010111101000011110001111100100011010111111111011111101110110101110001000100111011101000111100000111100011010000001100110111000101011000100000010101000
