11100011000101010110000110000001100001000011011101110110000101100100110000110101111101111001100101111000001001111110110011010011101100101110101110100010010111000001111110101101110011000001000111011011110000001111111010101101110101011110000010001010001100001001100010100100011001010101110010110111010100111000110100001110001110011111011001101000001110110100010011100110011010101101000011000010011101100001010111110111000101101110000100001011110100011000101011101111100010000101100010011100010001101101010010001000
11101111001100100110010011111101010000000110101011001100010100001011010011001000100000100011001101110111100111101010000000011101010101100111001110000100111011101100101111010010001010010101110000101000010100011010110001011110010001100110010100011001111110011011001010010110111000110001001100101100101010011111111010011001110000010011110011010111011010100010111010001100011101011110111111100111000011100011111101100111101100111000011110001000000000001010100100100010111110000110010110011000010111010010001000010000
11111011110100011111111010010011000011110010011010111011110010100110101101101011000010101100001101011110110101101010100010011000011100011101101101011010100111001101011100101000011011111010010001100100110010011100100100010101000001011111100100101011111011010010010001001110111010100100011110110010101000100101000010101011100110011001111000110110011110100011011100010001001101010111010001001110011001101010101101011010100001111011101101110101110110111110011111000100000111111001101010110110111001011100010010000111
10111100100010110111011101011001001111001100001100001001110110010000110001110111101011010001110100000111011001101010100000100010001100010111011000010010001011111101000000111100000011101010011111010010100100111010000101011100010111000010111010100111100100001001010011101010111011101011111010110011001000101100010110000101000110000010000101000011101011110001101101111000001110011101101000111001111010110000011101001000010111100111101001000100111111010011000000011010011100111111000010110011011110101111001000101100
10001000110100010000000011101000110000110001001000001010011111111000000001011111000101101000001011010101110001001000010111100001000010001010100001000010011100101000001110010011110001011010111101011000010111111010110000110010001010001011111110010010111101001111000010111011101000100011011101011001110000110000100110010010001011000110101000111101001111000000010001110010011100111101111011111100110100000001000001100000110000111111100110000010011011011110010010111111110000101111101011101000011011110000001100110110
11011001001000010110000110101111111000000111111100010110001100100011011111110011011101000101001010111001010110000010010110000010110001111011011010101001000011100111010010010111111100001010101110110001011011100111010000011100111010101001010000001111001101111101010111111111001001000101011001000001111011111001010001010000111000000101001011101101011111101110010010000111100110010101010110110110011010011110111110111011110010111000001011011101010100110011101100111000000100101011101010100000111010111100010001100010
01010110001111110011010111110110011001001010100110001010010101100010001100110100101000011100010011111101100001101001010000001111010101000001011101110001001000101111011011000100001100100001010001111101100111100000101010010011100011011001111111001111111100100010101010100110111011010000010010011000111000100111111011100001101111110101001000001000101010100011111001100001111111100000001000011001110010001001111000011100001001000111100110110110111010010000100111000101111101110000100100010101011111110011111000010110
10010111100001011011110000001001110100111011100110011110001001111011110101111010100101010101001010110111100110111010111011110001000110011010110000001100101000001010100100110011011101011001101010011001111100111011111000001010110100111011000000011101101011101001000011110001111111010100011010110011010101000001001011111010011110010010110011111111101100001100000110100101011010000011001001111111101010111100000110001111010111010010101100010111101011110000100110001001011110110110010010100010100101101100011000001101
01011111001100111010100101011010001010110000011011110100111000111000010001000110000101000011000001000000011000100101100001011110101001101010101011111010001101101000010110011000010100000011101010100011000111010001101000110100101001000011101110000011011010111011000110000000111100011100000101000111010011011111110010001010010010101110101011101100001010001011111011100100000101000000010111011100101111101000000100110000011110000100001001110000101010111001000111111000011001101110001111010101000110110010100010111100
11100111011111110111110110011110010001111100010101000000110100010011111000000101111100100000001010101000010011010101101011000010011101111001010100001011011010000100101100110010000111000111011110001011010101110100010000110111001010000000101010011110100010000000011111000011010110100010111010100011000101100011001000110100000111110000000010010101010010110101101010100111011100110100100100011100111011000101111100100100100000011010101000100111000000101000110011111000001100100110110100101010110000111100100110100101
01111000011101000111111111011101011110010111000100011001010000001110100100011011110011111100000011000111010011101001100010000100111100001101101011100001111011110110000010010110011010111111101001111101100101101011110111100101000011101001110101110000110100010011101011001111001100111001111010000110100111111110010111111000010011011100100010100111110111011000001101110010000010111110011010001100110110011011100010110110010100100101001100110011110000101011000001101001111110101011010110001100010001001000011000100110
10011010111111010001101100011010100110101010001010110110011001010100100010110001010111001111111000000111110000111011000011010000110001111111001001001100001110000001101000010011010111100001011001111100010000100001000111100110001111010101100010011101110110010111100110100001111000111011100100010011110101100011010001001100101111101010100111000011100110100111111111000111010101010011110110010101000111110100100100001101101010011011111000001010010011110110101010101010101111100100001111111111011110001110010101010110
11011001001010000010001111001001000111110000111110101011011000001110000110000010110100110000111110110001111101100111111101100100100010010110010101110101111101001110011001001111101111011010110001001101101000000110110110011100010100110010111011111110000010010110001100001001111010000101110101101101000001000100000101110011000100000110110000110100010001101001100110000010100100101100100100100101110010110010000100101011110111111100111101111010111110101000011010110010111011011011111111001111011101101111101100000000
11000101011111100010100011011101000010000011111110111111001001111010000010110101110011000101011101110111110001001111110101111110100101010111101101101001000001010011010110011110100010101110111011011101001111101001100001001001110001001010100101111100101111110010000011010001010001110010111101100110111011011100101111001001001100111001110001101001000011000001101010011100000101101100110010001000101100111101011001010111101100110110111010011111000111110000111101111110110110001101110100111110110000110101111111001100
11010111011010100001111111000111101000100010101100100000000010100110010101001001010001001111010110101110100010011101110100111100001111110110110110100110010110000101101010001001101010010011000010101010101100101000101001001111111010110010110000101111010001101110010111111001011111101110000100111001111011001000111001111101001100100101100000011011000010111100001010011011001101110100011010011100010001101111110001000000101010000111100010010010001111101101010100111010010000011110000110000000001000001101101100011100
10111001001110110110111110111010010010100000110011110000010100010000000101011010010101110011100000000100010000101111101111001011001010111010001011101010011100000100001111010000100001101110001110000110000010001010001001001010101100101101101011111101100110000100001011010100011101100011011000010011101010010101010100100100110001000010011111011100101100001110011111110000110110101100100100000100100011010010000111000000111001111001110100100111001001010001000101100001110110010011010000011100101110110011010010010001
10010011000100110110100010011001111111101011100100110100000110110001010111001110110100111100101000010110010010001100101000011010101111001001010011001000100110101101100111111100100001110000100010100110011100000110110001111101101001110010100001110011010000110001110101111010010100111000010010000011001111101011010100110011101111110110010001001000111000100011010110010000011101101111001001000111111101001111010100010110111110010000001100110010110110100111111111101100100001000110000000001000011011110000100111111010
10010001011001111101010001111000111101011001000100000010111000111100110100100101011111010100010010011000111010010010100011000111110111101011000010110110011001100111001000101001101111101110001110101001100010101111000011100111100101011101101110111100111111011010111000110011100000001100100110111110011111011110101010001011101111110010010100001010001100101000011011100110101000100101011100010010111001000000000100111000000011101001000001100101110001111100110010110110100101111001011011101010101110110010110111101110
11001001000101000100100110110101101000001100100011000011100110111100100101001001011111101001000110111000010111000001001100010011100011011111010001100000111001001000100011000111011001100011010110001110011101011000111101001011100101000001111001011110110100010100000110101111010011011011010011111100011110011100110010010111110001000111111000100010000001000110000110011001011010101010101110100011101111001100100000000111110111111010001010110001111000010111101011110011100000101000110010001010100010011100111011101111
10110000000100001010110100100110111000000111101100100010001111110100001111111010000000001001011011101001110100110001101100000101110010100010111001110101111011101111101101111100010101111110100000000011110011000110001001101100110100011000000001011010100011011101000001000110000111110011011001111001010011001010111011001100010011100101101110100000010111010101110011101110010111001101100111101000110001000000001101001110111101001011101011011111110001110000010111100100011010101111010101101100111011110101100000000001
00011110010001010001001011000000101100101010100100010010100010110000000010110000110001000010100010000100110001010011011101101110011001111011110111010000000011110001001010100110100101100010110001101011010111100011100010110010100101000100110001010111100101101111010010000011010000110100101000100010100010101110011100001111011101001110111010101011011100110111010101100101110111011111011110000001101010101110011001011101100010000001010000110001000110111101010001000110010010101000011011110001110001011001101100011011
01000111001101100011111101111110111001101011110010001111110011111101110010110011001010100001101000101110101110101110100000010101110011100101101110111001100111010101111111110010010111111011101111011001111000001000100110110111000101010001011010010101111100010101111111000110100101110111000011100010110111010000011100111011101110001101110111111000000000110010000101101011110000100000100100000010100001101100010111010111101111111111001101100000000011001101010101110011100000011111001010010000011011000000110110110110
00101101101010010000001111101100011101011101001000101101111011111000001111010111001001111001010000001011000010100010110010100000110000100101110001000111001001001101001000110010110001110000101111100111001110100111010100100000001010100011110100100010111010100010010100111010101000011011010010010101010010010111101000011011100100101010101001000000010101000110010011010001000001011001010100111011010101000011101010010001010111001111110010011001001011010000000000000001110001011111001101110111110000001011100101100000
10000010000101111001001100111110001001100100010010110100001111111010001111110101011010101110011111101100001101110110001111011101001010001100010101110100010100010101100111100101000110111001001111001011111111111101100000001001011010000011010111001000001111110011100011001000011111010111111001101010010111111010010111001110101100010111100010010101001011010010001001111000101110011100100000110100000001100001100100001011010011100001001100000010011010100100001000101011000000101010100000001010000110000001000100010110
00101001000111010111001000000011011000100001111011100100011110011101010111110110001010000010111111111100001001010110101000011011001111010111100101100110100000011100101010010001011100110010010100011101101000101111100101110110001010100101010101000100011010011011010110101011010010001010011110111100010101010010010000000100010110000110010001101111011000011110000111111100001001111100000001001011000100110001101010110111010100100111000001001100110110100111010010000101100100000011101000110111111101100101010000110010
01100010111110101100110101010110010100000101101100101110010001011001001010010001110111000100011101110110000001001100011001001100000111011010001101100011101111100110100101101000110101011100111000110000111100101101000000000111110001001101001100001001011000111001111011111011101000101011101101110111010110010111010010000101000000111111110001011001011110010001110010010111001000001111111101101001010101000100110001011011011011010010010111110010001101101000110001101101010010011101000010011010001100100111010110001010
11110000001111010010100111010011101100000000100100111000011111111111011101001110010100111011110000111011111110110110101110010111001000010111010001000100011000010100011111100111111101110010000010110011010111111011000000100001010001101101101111011101111000000111101000101100100100001011101100001011010001111100111011110001000101111110000110000001011011110000001000010001110101010110011000011011101101110010011111001111010110011001000011100011010010011111000100011001000001001100001010000010010111011000000011011111
10101001011111011111110001110011110010011001000111011010111101000110110101111000011111100101101100111111000011001001110011100000100000010110110001011101111010110110010100000001101101010110101110001100010111011011010011011100100001011011101010110001010001011111011101110100111011001110000110011000110100001010000001100111001011110001001111100100000111000001010010111011100111000101101000100110111111001100100101101011101101100011010000001010010111010101101000001101110010000011001110110001010011110011111101100101
10000110000100110010000101101101100011001110010101111010101011111011111001101110001001101111010101100000111110110010000001110111001001101111010110110100000100101011101000001011010010110100111100111000011000100000011010000111111011011100110100111101111110110110100000111001000100110110100001101110000110000111011011110111000001010111110101011001000010010001101001111111111110010010111001011000011010110001110010110001111100001000111101111001100110110010001001101110111110000011110010000101010111100000001110101111
11111000111010011011010111100011011010010010111000001110011100111101010111010100001101111000001010111110011010001001110001001000011011011010001010110000110000111011001000001000001101101011101000111001010011010010111011101101101001011010100111011010110100001110001010110111110010100001101111001010001011100110101000001111000011101011000111111011010000101101101111011000110000101010100101010111000111001010000110011100011110100000011101001101100111001000000001000001011001110101001011111011100001100101000100010010
00001100010101000001111111111011100101011110000111010111100101111100010100011001001011011101011011000101011101001111001101100000000101010000100101101100011010110100011110001111111100010100111001100111010010100111010011011000001011100101001011010100010001001011100001000001111010111110010000011110001011000011001101111100001100000000101001011000010000110100100001000100111001101111010001011010001111100101011111110010100110011100011001110101100001010101101010011010010011001001011110011100011011111001011010100000
11110011001011101000011100111110101000100111111101111010011101011111101110011111101100000011111110101110110000100101110010110001111101011110000010010111010101100100100011000001110101111000111100101101011111100000101110110100001100100100110110110101011111010100010101111011111100010001000010101011001101110011011001010100010101101111111001110101101101110100111010010000100010111101001001100011110011000101111000010100000101101000110100011010010010100111101110010111111101101011110011000111101000100011101010010001
00100011100111111011101010011010101010010010000011100111100100110101000101100111011110001100100010001111010010101110000101110100010101000110000001000010010001010111011101010011010111101110100010101101010111100011110011000000011001011011111001111001110010010001011001110111101110101110001110101001110101100001100010010000010110111010101111001111111011011101110101010011010111000111001011100010000011010001110100000101111001000011000100111101111110010010001000001100011000011101001011000111011111100000101001001001
00001000000100010010101011100001011011000110001111100010101011011010101010001100111101110100110011111100111001100111010110100001111000100110100110001101010111011100000111100010101111011100011111110011100011001001010001100010110011011101011100111001100000111010101000101101001010000000101001111111100000010010011010011010101110111001111011000000110011001110111001111001101101111000100101101101110101001101101101000110010001000100010011100100111101100011001101011100010010011101010000010110110011011100011000111111
00100100010100000100001011000110110111011010001111001101011011110101100000011001111111100011101000011111011110100001000100000101010000001111001000001110110000000001010011101111010101111101101111110101101010011001000000111011101011101110111100010000000001011110100110100111100111100011111101000100100111101000110001101000010101101110110001011011100000111011011001000000111010100111101110000111000010011101110110010000011010010001011010011111011011000000011111100100101001110001010001000110011010010110010010101010
00010111010011000010111000001010010100001100101111101100101010100011000011110101101011111000000011110001110000001101010100000001011110101011010101111000100000100000111110111110000000110111111111100111111100100101111100010000110111001011000111011110110000001110100100110000101100000100110111010000100110101000101100011101101010000100101001011111011000001111101011001010011000101010101010110100110100011100011101111101111010000111010010011001011010001001110101100111100110111011111011001000100110010101101011111010
