00111111001111100011110100111100001110110011101000111001001110000011011100110110001101010011010000110011001100100011000100110000001011110010111000101101001011000010101100101010001010010010100000100111001001100010010100100100001000110010001000100001001000000001111100011110000111010001110000011011000110100001100100011000000101110001011000010101000101000001001100010010000100010001000000001111000011100000110100001100000010110000101000001001000010000000011100000110000001010000010000000011000000100000000100000000
