01001011011100110000101101000010100101101111000001011100111101011100111010011111100110100111110000100010001011101101101100101011000100000010100000000010100110010111000111010001111011101111000011101000001100010010111010110101000110110110111000101100100000111011011111101101000010111111111100110011100101111001111111111001110001101100101111010011000100111010010111101101101100000111011000111110100010001001100011100111101011000101011111110110000100110100110000011100101010100010000000111111100000011101000100111000
11110100011101001101011011101111101011110100111010010110001011100110111110111110011100111101011111111101110111111100100100000101111010100100010000111000010000101101101110010010011111111010000100101100110100110010000010110011000010111011000111010000010000110010110111001100000101010001010011000010010011101110100010000111000001101010110011111001101100011010101100110101000110100111110110101001010101100000111110000001100100100011110101100010000011001010110110101110100000001101111001011101100011001001001001011011
01001100011110110101000101000100110010111011111001111001011000011101011111010001000000100100010111101110010001011010111010111000101111111010000011101101011010101100100011010110001000101001001111100101110111010001000111110011011101100101000000111000111001011001011010011111000110100100011111001011001100001101110010111011011101101110001001110011110010000111110100101011011110100100001111101101011101001000010101001001010010110001111010010000001110011100001011110001111001011011100100001110000110100001110110100111
11111000001001100010100000111101111000101111111010110001011011110010001110000001101010100100000110010101101011010001000111101001011110011010011000101101100111000110110001101011111101000011001101100111110110000001011000110001101101011010010101100101001110010010100100000110010001111000010011010100101110110010111001110111001001000100000110000111111001101111100100011110011100110011011001010110111010100000111101001101101101100011000001101100010000001011001000011001011111100000000010000011101010001111110100100110
00101101110001111100101110001010011010000110001001111001010010111111011000010011010000001001001101111100011000010011011110100011101010100101101101101010010011110110000111001001011011111110011000000001001000100100000110110001011110100000001100111000000001111101110101101111000001010011010000100101001111100001101010111001111010011111001000111111100010000101110100011111100011100101110101110010001111010111011011000010011100001111110111101001101011011000111100110001011111111101010101000110110010101011110000111001
10111000110110001101001000001100000011011010000001101011100111111110110010101110000101100011110111010010111010010000110010101101011100110100011010010000011011100011101101111010110100011111011011101101100000111010001000010011110101110000010110000110011001110001011001100000111001111011110111010100011111101011001010110110100110101011101110010110001001010100010001101001011000111101100111011110001000001011010000111101000100111110010100011001110111011111000010110101001100101001100000001000100000000111111110101110
10101111011100101101101010000010000111111111111001100111001110110010001101010010001000001111111000100011101111001011101100101101000101111100011000011001111011001111001101010101100000111101000001001111010100011110001011101111100001000101000111111000011100011111010111100000001010011010001111100100000100010010010000101111001111011111011101001110001010000000011001011100111111110011011111001110100111100111011010000000111111100100110101100010100001011011000110011010011111100001000011111110111001001010001010110110
10101000000100101111100100110101111101111101110111010101110001010101101000101100001110111101001011001011110010000010111101000110010000000011111111101101011010010111101001011001100100101001011001011000100001011001000000100011000000000001001011110000011110101110111000000001101011101110100111010110001011110001110111001001100001100110101010111011100000110010100110001000000110101100000100001011111100001101000001000011111001100000011000000110001111001000001001010011110001010010001000110010100100000100101001101011
11111110111000110110111110011100000011101100011101011001110101011111111100011010010110111101111011001011010001001010111110111101000000010101011011111001011110110011101011100111101000110011001111111111001000000010101101011111110110010110100110111110111111101010000001010100111001000001110000110110001010010011011001111011100010000101100000011011010101111001101101100101111000110101110001010110011100010000000100001010111111001111110011101110101110110000011010000110001100111011100110111111000110111101100010011101
10101110110101001010010111001101010001100110001010010100111100000010011100000100111010111001001110001011010110110011100101101101100101000101110100001111010111000001100000100101011000111100110110011110100010001100001000000010010110111000110011011100011011010010010011001011100001111001000010100010101111100100111011100100001101010100011011001000011110000100011011011101110110001000100010010110010010111101010110000110101001101011111110010000100101111100110101011100111100011101011110101101101110000111001001110100
11001100101100010011010110011110011001010001011100000101100101100011111000011011011101110010010110000110001101001110110000100110010001111010111110011101110101001111001001110100000011111001000010001001111111101100110111110001010111000100001111001010000001110001010011100011001100101011010001000101010100011111100111001111011110111000010010011111001101101110010111001010111100010011000110010101001100001010001111100011000101100110110001110100011011111101100001111000011011010010101000101100100100101101100111001010
11001100000110011011011011101011011011101011011001111101010110000110000011000001111101011101101011110010111111100011111011100011110110001000001011100000000100001000010000010000011011101000001001001111111101001110111000101111010010111111110101101011010111110001001101100100010010111100000001000010010011100100011111111111111110101000111100101111111101001101011111100110101010110110011001010111100100011111101010010100001011000000110101110110000100001110100101001100000001001101101011110110001110101001001101100011
00011101111000100100111000110011001010110000111110011100101001011010011011111110001010111100101011010110001000000100101011000011010111011000011000111101001100100100001010000100110011110001101011001100101110010111011001001110011111011011001000010101100001111010001101010110000010111011111001110111010001011110001010100010011001011010101111011111111110101101011010110101001010111100110011000100000001110010010100101001100100100101011111110101000011011000111000011001110101100000111111110001100010001011100101111011
00010101010011010111100001111000101010101100010001110011100101101110111001010011011101001010111110110011111010011100110000111110110101011000111001001101000110101000100100100011110111111111011010010011110000001011110101110111111000001000101111101011010110101001000011100010001101110111100011000010110011000111110001110111100000011010100101011000100001011111110011110110110100010001001111110010001111101011011101100001100000001101010100011111111110000001001100001010100111111001101001010101111011001001011111010010
00100110011010001101010111100001100000111101110001011011101100110011110111111011110010000000100001010010001010110110000100000101001011101000101010011011001100010111010101110000100011000001001011000110011100100010101010110011001001101011100111010011111100110011101100100001010101000110001010111111001111100111100011010001000011111001111000011111000100110011010001011101000111111011100011001100010011000001011101011111110100100101101010110000000100110010101011110111000100010111000001000100011110000101110110000001
00111100010000110011110010110000110010101011100000001000111000101111011110000100110000000111000101110000010100110110000011000010100000111010010010001000001110001110011100110001001001000100100100011000111110101111011010000101011111101100100111001010101110111000101101110101101011010111111010011010111000000001010011001110110001101001000100011010110101011011010101100011100111001101110010100011111000011001111111000110110111111011000011001011100010110010100100000010000110101011110100110111100111110101110000000100
10001011101001010111100011100101000100100110000011011100011010111000111101110000001001101011101010000001111100101110100101000001001011001100000111001101000000010110111001110001010000110010010100101100110101000010100111010010000101001100000111110011001001101111101100000000110011100011101110111001010101000000101010010101000010110011100000100011110010011001101011011111000100101011110001010001100100110111000010110001111010100111110010111001001001011101111000010000010110000100010001000010111010101001111110010000
11110100000101110110100010101100100100010010011011100000011001110100110011111001010110110100001100001011011001011010101010000111101000000101100001000111101110110001110000111001111011000101001110011001100101011011010001001100001111000111010001001010101001101101010110101101000010110101010011101010110100000111010111011111000010100010001100001000100010101111010100000100100110000010010001111101011000001011001001101101001010011111010111001000001111100011010100110111101101001000111011101011110110110111100001011001
00111111100000010010000001011110100100110111011010001111100101011101101010101101010110110110010001000111011010001100100111101000100100111111101101011111110010010001000110100111111001000101010100100101011000011100101110100000001010001101111100011111111001000001001011101111001101001101100110001101000001001011110001111110101110100110110000111011011000100001110110111110100111100101111001110110110010000100011111110010001110001001100010010011100001001110001110111100010101010100110110000111100011101000111010110101
00100001111100110001110001011010001001000000110110010000101011101101001110110011100111101100110110000000101000111011110111100110010011000101101011001011110011111110111001111111100001101111110110001011000011101010000000000000000100010111010100000110110101100010000100110100111101001000111010100001101111011011110011010001011111110100111010000111010100000000001001000100011010100000011110101001010010110011010010100101110001111010010110111111010101010100101100100001011011011000101101101110100110001100010111001111
01010101011111011100111011111110010011000101011011000111010110000011111001011101100110011010001111101011111011111001111011011010010111000011011110101000010111001111101010101000110000101000110000000100000000100101111011001110110000110110100010101110010010001001111111000100011011110001000011100100100011011100001101111110011001100110000101101101101000001000010111011111010110100000100110111000000000000101100000110100001100111011100010101001111011001111000000101110000010001010100000000101101101100011000100001011
01010111001001000001101100111011101110110111001001111110101100110101100100010100101010011100011011010010110101111101011010111000100111111110010000000001101110011001000011100100100111111010100110001010111011101010000100111010101111101010000010000101101010110100101001001110010101001110101101010000101001001100011000000000011010011000111010010010100110110001100010111110101100101000000011010111101001000011010101111100101011011011000000111010000111010010001010001101010011111011110110110010000000000001001101100100
11100011100000000101110101000100011000010000111110110000000011100010010011010110111100101010100110110100110000011010010100000000000100100001110001110000100001000111001100110110001111010100110010011001101001011111110001110000110010111101011101000000000110111011101101011100100000010011111011101111001001011000010011110100001010001101101011101000110110011001011100010111011000110110001000110111010010011111111010100101001010000010001000101101100110000100000100000000110111000000110100100001001100000011111011111010
00001011011101101000000100011000110101100111101010111101101100100010101101110100100101010011000001000111001111001111101101010011100000000110000101111111001111101000011000101010000011011100110001000001010110000110100101110010000101000100001101011001011000001001011101001001001100110110001011001000001001101010100111010110100110110011010010110101101011001100000111010001100111111101000111110101001001101011000110000101011010101001001011000000100100001000110101110001111000110011101001010000010001010110001111010111
01000100100001111000101100001100011010100011100001110001011110010111000100100100110001100111110010110000110111010010100110001111110101110101010000100111001010110000100000011000100011011111111111000110010000111110000100011001011011000101011101100101010111000010110110010111110010010011110111010111100011010010100101000011010100100010010010111011011111000101110000010100001101011101111110111100011001100101000000000100110100100001101111110011011011000010111101100101010010011101011110011011101101000000010010001000
10010101100010011111111111000101000111110000100010110001101011101101101010110111111100100010111110101010111011101001101011001110001011110110001100101100111001100000001110101100011011011110011111111110010011100010110110010000011010100000100101110100100011000010110001101000000001001100011111110010001101110010100011000101111010111001000010000101110010001010111100101110010011101101001101000110001100110011110011010100010000011001011101110001100001101101001011000001100000100100010010010010100000111110010001110111
01010100101001001001000110101001111001101110010010011011111101110001011011001000010011010011100011110111110110100101101111111110010000001011110001011001101101000011100100010000001001100000000000010110101001010010001111101100000101100010000000000010000011111100110001111011100111111000110010010110101111000110010001100101100101111110010000010001111010001010111100010101101001001001000101100110111000000100011111011100101111100110000010001010100001111000101111111111101111110000011011111101100101000001000101101011
10100000011100110100010000111001001101010101101011101110000011000011100101011001001110110101011010101101000101010101000110110101010010101100001111011110000110100111000011001010001101110100000101011101000111111111000000111000100011110101011101110011100010101010100010100111111000011110111110001011101111110011010000011001110000011000000101001001001110100110010100110101101100010111110000000010101101000010010000000111110010001111100111100000110000011000110011010110101110110111000000000110111111010101001111101101
00010111010110011011111101010011010011011101101000000001001101101100010111000001100010100111111110101101000000111000100001011101001110011010000111011100111010000101111110010011010110100111101000001111000000001100100000110100101110000011011011101111111010101111010111111001110110100110010001010000000001100111001101111000111011010110001001101010010110111111110011000001010000101110010111100101101000111001001011011100101001111010000001011010111010010110000000100011101000111001000000010000011011001111010001101000
01100110000000001010001110101110011010011001111011001110000110000111100101011100010110000000111001101000011111000101000100000010011010110100010100101011001110101010011010100010110111010101100010011100111100001010100100100011100110010101101100000111010101000011011110011110001010110111110111110111011000100101110101011000001110010101111111111010000100111110010101010111010111000001110001101000100111001100101001000100000110010111000000101110100010100011011010110000110001001100110101100001011111010110010011100010
00100100111101010100000001000101101100101001010100110101011100000111000001001101001011010000001001010101000001011101111011101001010010010110100011000100000111100010001010101010101010010100011100011100011011001111011001100101110100100111010011101101101001011011110111110011010001000010011111010011100010111010111100011010000000011011010011100101111100101110001001110111001011100101001111001110100011100111001011000010101100110100111010100110100100000110100100101101111110000110010101110111001100111100111111101101
11010111000101100110001011101101101110111110111000100000100001000101000111110110101110001100111010000110101001011110101100100010001000000100001001010100100100101000010110100010111000110110111010100000111001000100011101011101111110100011100000010010100011101100101111010110000111011110000000001011001101010110110011101001001100000110101000110000111000100111111011100101000110101100010011010111110010010100110110000101100010111000010001010101010101110001001010011011100010101011010011000110001110010000110110111110
00111101101011011100101101001011101101111111110100100010101101110110010011100001111000011010010101101100010010101110011001010011110100010110100000101000100100111111011100011111001111010100111111000011101111101100010111101100011001001101001111111010000110011100101010010001100101100001111000101101100001100010001100101000010011001010111111111001001100001111000100010101101101010101110001000101100011100011101011101001110110100111011111000010010011011110000111000101110000000010111001111010110111001101000100110110
11010010011110001100101101011100110110110001010010010101000100111000111001010010000001110111101000101001001000001001000111011001110110000011010001001000010101101010010110001100101101101100110011001001001001001110110001010100110011110101110010101000101111011000111010110111000000011010110100011010100101110100010110101110101001111010100011110000010011011111110101100001100011100111110100100001110000111111011100101100001111110110011101000011001001111010000101001101101111111100100100010000010011010101100110000111
10100001111101011011111001111100101110100100100011011110011110001010101101000111100111100110111101101001100000110000100101111001010110100000001011010101111001101001100100111011111000100001100110101110100010111011101011101001000000011001101001100000101111100001001101111101111011000011101010101000000101101110010110111111101000111010100111101010110011111010110101100110101101010010010110000101000100100100111001000100001110001011001110100101101011101100010101011010010010001001101100101111011011011100010101111000
10000101110110101110010111011000110000001010111110101101001111111100001000100100100111100111001001010001001010001010001000111111111110010010111100010001001100100010101000000111110110010000011010100101100011111010000001110100100010101100011001010100101010001110010001101101010101011001010100101011011001111100101111000111010101100001100011110100111001010101011101000001101010011001000000010010111001101110100110000100011011000110100001001001000001011011010010010101110010110010001010101101011000011111100001110010
