0111111101111110011111010111110001111011011110100111100101111000011101110111011001110101011101000111001101110010011100010111000001101111011011100110110101101100011010110110101001101001011010000110011101100110011001010110010001100011011000100110000101100000010111110101111001011101010111000101101101011010010110010101100001010111010101100101010101010100010100110101001001010001010100000100111101001110010011010100110001001011010010100100100101001000010001110100011001000101010001000100001101000010010000010100000000111111001111100011110100111100001110110011101000111001001110000011011100110110001101010011010000110011001100100011000100110000001011110010111000101101001011000010101100101010001010010010100000100111001001100010010100100100001000110010001000100001001000000001111100011110000111010001110000011011000110100001100100011000000101110001011000010101000101000001001100010010000100010001000000001111000011100000110100001100000010110000101000001001000010000000011100000110000001010000010000000011000000100000000100000000
1111111111111110111111011111110011111011111110101111100111111000111101111111011011110101111101001111001111110010111100011111000011101111111011101110110111101100111010111110101011101001111010001110011111100110111001011110010011100011111000101110000111100000110111111101111011011101110111001101101111011010110110011101100011010111110101101101010111010100110100111101001011010001110100001100111111001110110011011100110011001011110010101100100111001000110001111100011011000101110001001100001111000010110000011100000010111111101111101011110110111100101110111011101010111001101110001011011110110110101101011011010010110011101100101011000110110000101011111010111010101101101011001010101110101010101010011010100010100111101001101010010110100100101000111010001010100001101000001001111110011110100111011001110010011011100110101001100110011000100101111001011010010101100101001001001110010010100100011001000010001111100011101000110110001100100010111000101010001001100010001000011110000110100001011000010010000011100000101000000110000000
