00111111001111100011110100111100001110110011101000111001001110000011011100110110001101010011010000110011001100100011000100110000001011110010111000101101001011000010101100101010001010010010100000100111001001100010010100100100001000110010001000100001001000000001111100011110000111010001110000011011000110100001100100011000000101110001011000010101000101000001001100010010000100010001000000001111000011100000110100001100000010110000101000001001000010000000011100000110000001010000010000000011000000100000000100000000
01111111011111100111110101111100011110110111101001111001011110000111011101110110011101010111010001110011011100100111000101110000011011110110111001101101011011000110101101101010011010010110100001100111011001100110010101100100011000110110001001100001011000000101111101011110010111010101110001011011010110100101100101011000010101110101011001010101010101000101001101010010010100010101000001001111010011100100110101001100010010110100101001001001010010000100011101000110010001010100010001000011010000100100000101000000
