00111111001111100011110100111100001110110011101000111001001110000011011100110110001101010011010000110011001100100011000100110000001011110010111000101101001011000010101100101010001010010010100000100111001001100010010100100100001000110010001000100001001000000001111100011110000111010001110000011011000110100001100100011000000101110001011000010101000101000001001100010010000100010001000000001111000011100000110100001100000010110000101000001001000010000000011100000110000001010000010000000011000000100000000100000000
<<<<<<< HEAD
=======
01000000001111110011111000111101001111000011101100111010001110010011100000110111001101100011010100110100001100110011001000110001001100000010111100101110001011010010110000101011001010100010100100101000001001110010011000100101001001000010001100100010001000010010000000011111000111100001110100011100000110110001101000011001000110000001011100010110000101010001010000010011000100100001000100010000000011110000111000001101000011000000101100001010000010010000100000000111000001100000010100000100000000110000001000000001
01000001010000000011111100111110001111010011110000111011001110100011100100111000001101110011011000110101001101000011001100110010001100010011000000101111001011100010110100101100001010110010101000101001001010000010011100100110001001010010010000100011001000100010000100100000000111110001111000011101000111000001101100011010000110010001100000010111000101100001010100010100000100110001001000010001000100000000111100001110000011010000110000001011000010100000100100001000000001110000011000000101000001000000001100000010
>>>>>>> 1d7cf087deaecb45773d44c50fadf969073352c2
